{
  "version": "1.0",
  "truncation": null,
  "padding": null,
  "added_tokens": [
    {
      "id": 0,
      "content": "<|unknown|>",
      "single_word": false,
      "lstrip": false,
      "rstrip": false,
      "normalized": false,
      "special": true
    },
    {
      "id": 1,
      "content": "<|im_start|>",
      "single_word": false,
      "lstrip": false,
      "rstrip": false,
      "normalized": false,
      "special": true
    },
    {
      "id": 2,
      "content": "<|im_end|>",
      "single_word": false,
      "lstrip": false,
      "rstrip": false,
      "normalized": false,
      "special": true
    }
  ],
  "normalizer": null,
  "pre_tokenizer": {
    "type": "Whitespace"
  },
  "post_processor": null,
  "decoder": null,
  "model": {
    "type": "BPE",
    "dropout": null,
    "unk_token": "<|unknown|>",
    "continuing_subword_prefix": null,
    "end_of_word_suffix": null,
    "fuse_unk": false,
    "byte_fallback": false,
    "vocab": {
      "<|unknown|>": 0,
      "<|im_start|>": 1,
      "<|im_end|>": 2,
      "!": 3,
      "\"": 4,
      "#": 5,
      "$": 6,
      "%": 7,
      "&": 8,
      "'": 9,
      "(": 10,
      ")": 11,
      "*": 12,
      "+": 13,
      ",": 14,
      "-": 15,
      ".": 16,
      "/": 17,
      "0": 18,
      "1": 19,
      "2": 20,
      "3": 21,
      "4": 22,
      "5": 23,
      "6": 24,
      "7": 25,
      "8": 26,
      "9": 27,
      ":": 28,
      ";": 29,
      "<": 30,
      "=": 31,
      ">": 32,
      "?": 33,
      "@": 34,
      "A": 35,
      "B": 36,
      "C": 37,
      "D": 38,
      "E": 39,
      "F": 40,
      "G": 41,
      "H": 42,
      "I": 43,
      "J": 44,
      "K": 45,
      "L": 46,
      "M": 47,
      "N": 48,
      "O": 49,
      "P": 50,
      "Q": 51,
      "R": 52,
      "S": 53,
      "T": 54,
      "U": 55,
      "V": 56,
      "W": 57,
      "X": 58,
      "Y": 59,
      "Z": 60,
      "[": 61,
      "\\": 62,
      "]": 63,
      "_": 64,
      "`": 65,
      "a": 66,
      "b": 67,
      "c": 68,
      "d": 69,
      "e": 70,
      "f": 71,
      "g": 72,
      "h": 73,
      "i": 74,
      "j": 75,
      "k": 76,
      "l": 77,
      "m": 78,
      "n": 79,
      "o": 80,
      "p": 81,
      "q": 82,
      "r": 83,
      "s": 84,
      "t": 85,
      "u": 86,
      "v": 87,
      "w": 88,
      "x": 89,
      "y": 90,
      "z": 91,
      "{": 92,
      "|": 93,
      "}": 94,
      "~": 95,
      "¡": 96,
      "¢": 97,
      "£": 98,
      "¤": 99,
      "¥": 100,
      "¦": 101,
      "§": 102,
      "¨": 103,
      "©": 104,
      "ª": 105,
      "«": 106,
      "¬": 107,
      "­": 108,
      "®": 109,
      "¯": 110,
      "°": 111,
      "±": 112,
      "²": 113,
      "³": 114,
      "´": 115,
      "µ": 116,
      "¶": 117,
      "·": 118,
      "¸": 119,
      "¹": 120,
      "º": 121,
      "»": 122,
      "¼": 123,
      "½": 124,
      "¾": 125,
      "¿": 126,
      "Â": 127,
      "Ã": 128,
      "Ä": 129,
      "Å": 130,
      "É": 131,
      "Ê": 132,
      "Ñ": 133,
      "Ò": 134,
      "á": 135,
      "â": 136,
      "ã": 137,
      "ä": 138,
      "å": 139,
      "æ": 140,
      "ç": 141,
      "è": 142,
      "é": 143,
      "î": 144,
      "ï": 145,
      "ð": 146,
      "Œ": 147,
      "œ": 148,
      "Š": 149,
      "š": 150,
      "Ÿ": 151,
      "Ž": 152,
      "ž": 153,
      "ƒ": 154,
      "ˆ": 155,
      "˜": 156,
      "–": 157,
      "‘": 158,
      "’": 159,
      "‚": 160,
      "“": 161,
      "”": 162,
      "„": 163,
      "†": 164,
      "‡": 165,
      "•": 166,
      "…": 167,
      "‰": 168,
      "‹": 169,
      "›": 170,
      "€": 171,
      "™": 172,
      "he": 173,
      "an": 174,
      "the": 175,
      "ed": 176,
      "and": 177,
      "to": 178,
      "in": 179,
      "re": 180,
      "ou": 181,
      "wa": 182,
      "it": 183,
      "ha": 184,
      "er": 185,
      "was": 186,
      "om": 187,
      "en": 188,
      "on": 189,
      "ar": 190,
      "The": 191,
      "is": 192,
      "ing": 193,
      "il": 194,
      "sa": 195,
      "id": 196,
      "le": 197,
      "ay": 198,
      "im": 199,
      "lo": 200,
      "al": 201,
      "st": 202,
      "or": 203,
      "her": 204,
      "He": 205,
      "She": 206,
      "ir": 207,
      "th": 208,
      "They": 209,
      "be": 210,
      "ne": 211,
      "hat": 212,
      "ver": 213,
      "ut": 214,
      "se": 215,
      "ke": 216,
      "at": 217,
      "no": 218,
      "ck": 219,
      "ld": 220,
      "ce": 221,
      "said": 222,
      "am": 223,
      "ve": 224,
      "ri": 225,
      "ily": 226,
      "she": 227,
      "pl": 228,
      "ith": 229,
      "pp": 230,
      "of": 231,
      "ad": 232,
      "with": 233,
      "ig": 234,
      "his": 235,
      "Lily": 236,
      "un": 237,
      "you": 238,
      "ked": 239,
      "so": 240,
      "ly": 241,
      "day": 242,
      "very": 243,
      "we": 244,
      "ome": 245,
      "li": 246,
      "my": 247,
      "that": 248,
      "go": 249,
      "up": 250,
      "ow": 251,
      "ant": 252,
      "ch": 253,
      "es": 254,
      "as": 255,
      "had": 256,
      "play": 257,
      "they": 258,
      "for": 259,
      "mom": 260,
      "fe": 261,
      "nd": 262,
      "ould": 263,
      "all": 264,
      "end": 265,
      "bo": 266,
      "happ": 267,
      "ent": 268,
      "want": 269,
      "itt": 270,
      "ge": 271,
      "ok": 272,
      "are": 273,
      "tim": 274,
      "It": 275,
      "out": 276,
      "do": 277,
      "not": 278,
      "ro": 279,
      "ound": 280,
      "ittle": 281,
      "ther": 282,
      "time": 283,
      "little": 284,
      "there": 285,
      "ry": 286,
      "ht": 287,
      "ra": 288,
      "sh": 289,
      "happy": 290,
      "sm": 291,
      "big": 292,
      "but": 293,
      "ys": 294,
      "fri": 295,
      "ake": 296,
      "saw": 297,
      "friend": 298,
      ".\"": 299,
      "ter": 300,
      "ack": 301,
      "thing": 302,
      "some": 303,
      "ul": 304,
      "One": 305,
      "ide": 306,
      "one": 307,
      "Tim": 308,
      "!\"": 309,
      "On": 310,
      "ug": 311,
      "ved": 312,
      "were": 313,
      "Once": 314,
      "ho": 315,
      "car": 316,
      "him": 317,
      "irl": 318,
      "el": 319,
      "wanted": 320,
      "pe": 321,
      "Tom": 322,
      "girl": 323,
      "upon": 324,
      "ful": 325,
      "them": 326,
      "ur": 327,
      "Ben": 328,
      "ind": 329,
      "their": 330,
      "ill": 331,
      "ag": 332,
      "smil": 333,
      "did": 334,
      "could": 335,
      "me": 336,
      "co": 337,
      "have": 338,
      "ex": 339,
      "mo": 340,
      "hen": 341,
      "But": 342,
      "hel": 343,
      "can": 344,
      "rom": 345,
      "went": 346,
      "ted": 347,
      "new": 348,
      "od": 349,
      "de": 350,
      "nam": 351,
      "?\"": 352,
      "help": 353,
      "friends": 354,
      "um": 355,
      "ab": 356,
      "hed": 357,
      "way": 358,
      "back": 359,
      "fel": 360,
      "ain": 361,
      "like": 362,
      "You": 363,
      "fun": 364,
      "fo": 365,
      "side": 366,
      "man": 367,
      "ark": 368,
      "ic": 369,
      "too": 370,
      "ran": 371,
      "ght": 372,
      "po": 373,
      "Timmy": 374,
      "star": 375,
      "smiled": 376,
      "named": 377,
      "loved": 378,
      "low": 379,
      "loo": 380,
      "asked": 381,
      "et": 382,
      "Mom": 383,
      "ard": 384,
      "la": 385,
      "felt": 386,
      "sto": 387,
      "see": 388,
      "looked": 389,
      "ick": 390,
      "own": 391,
      "around": 392,
      "ame": 393,
      "pr": 394,
      "make": 395,
      "ure": 396,
      "bir": 397,
      "would": 398,
      "wor": 399,
      "fa": 400,
      "boy": 401,
      "now": 402,
      "ong": 403,
      "other": 404,
      "bird": 405,
      "gr": 406,
      "park": 407,
      "ll": 408,
      "op": 409,
      "what": 410,
      "ice": 411,
      "mad": 412,
      "tre": 413,
      ",\"": 414,
      "away": 415,
      "gether": 416,
      "ca": 417,
      "ss": 418,
      "dd": 419,
      "says": 420,
      "started": 421,
      "oud": 422,
      "came": 423,
      "made": 424,
      "ight": 425,
      "something": 426,
      "together": 427,
      "na": 428,
      "get": 429,
      "ited": 430,
      "look": 431,
      "put": 432,
      "sad": 433,
      "exc": 434,
      "got": 435,
      "from": 436,
      "ts": 437,
      "scar": 438,
      "ach": 439,
      "if": 440,
      "home": 441,
      "mu": 442,
      "again": 443,
      "ue": 444,
      "ie": 445,
      "wal": 446,
      "good": 447,
      "who": 448,
      "found": 449,
      "ried": 450,
      "then": 451,
      "dec": 452,
      "pped": 453,
      "ci": 454,
      "more": 455,
      "when": 456,
      "hug": 457,
      "ep": 458,
      "playing": 459,
      "ought": 460,
      "king": 461,
      "ally": 462,
      "ave": 463,
      "by": 464,
      "things": 465,
      "excited": 466,
      "liked": 467,
      "ru": 468,
      "Sam": 469,
      "der": 470,
      "ous": 471,
      "ny": 472,
      "ara": 473,
      "ided": 474,
      "An": 475,
      "us": 476,
      "decided": 477,
      "ouse": 478,
      "every": 479,
      "your": 480,
      "care": 481,
      "scared": 482,
      "dog": 483,
      "down": 484,
      "use": 485,
      "ax": 486,
      "find": 487,
      "sha": 488,
      "pre": 489,
      "than": 490,
      "ac": 491,
      "take": 492,
      "spe": 493,
      "We": 494,
      "ate": 495,
      "Sara": 496,
      "feel": 497,
      "jo": 498,
      "udd": 499,
      "Anna": 500,
      "ways": 501,
      "dad": 502,
      "arn": 503,
      "wo": 504,
      "Max": 505,
      "our": 506,
      "will": 507,
      "ang": 508,
      "clo": 509,
      "here": 510,
      "didn": 511,
      "always": 512,
      "about": 513,
      "took": 514,
      "bb": 515,
      "ite": 516,
      "mommy": 517,
      "qu": 518,
      "toys": 519,
      "ise": 520,
      "old": 521,
      "te": 522,
      "ma": 523,
      "So": 524,
      "know": 525,
      "outside": 526,
      "tree": 527,
      "ers": 528,
      "thought": 529,
      "learn": 530,
      "ive": 531,
      "sor": 532,
      "ust": 533,
      "ened": 534,
      "wh": 535,
      "room": 536,
      "fore": 537,
      "cat": 538,
      "ty": 539,
      "Jo": 540,
      "laug": 541,
      "speci": 542,
      "special": 543,
      "When": 544,
      "udden": 545,
      "knew": 546,
      "ged": 547,
      "red": 548,
      "any": 549,
      "run": 550,
      "ball": 551,
      "come": 552,
      "Her": 553,
      "pa": 554,
      "bu": 555,
      "uddenly": 556,
      "br": 557,
      "ink": 558,
      "toy": 559,
      "house": 560,
      "ish": 561,
      "never": 562,
      "fter": 563,
      "how": 564,
      "ol": 565,
      "show": 566,
      "lf": 567,
      "rd": 568,
      "ist": 569,
      "Jack": 570,
      "sorry": 571,
      "cre": 572,
      "bl": 573,
      "sw": 574,
      "much": 575,
      "Every": 576,
      "hand": 577,
      "ia": 578,
      "dre": 579,
      "careful": 580,
      "ven": 581,
      "able": 582,
      "cle": 583,
      "sk": 584,
      "gave": 585,
      "sun": 586,
      "long": 587,
      "into": 588,
      "tried": 589,
      "inside": 590,
      "water": 591,
      "told": 592,
      "cl": 593,
      "this": 594,
      "over": 595,
      "box": 596,
      "ta": 597,
      "proud": 598,
      "couldn": 599,
      "heard": 600,
      "dy": 601,
      "ear": 602,
      "tter": 603,
      "each": 604,
      "sp": 605,
      "Let": 606,
      "love": 607,
      "eat": 608,
      "Suddenly": 609,
      "gre": 610,
      "ump": 611,
      "pick": 612,
      "led": 613,
      "played": 614,
      "pret": 615,
      "ion": 616,
      "Then": 617,
      "cause": 618,
      "Mia": 619,
      "just": 620,
      "uc": 621,
      "hugged": 622,
      "off": 623,
      "unt": 624,
      "right": 625,
      "wat": 626,
      "fly": 627,
      "com": 628,
      "nice": 629,
      "From": 630,
      "And": 631,
      "pot": 632,
      "ct": 633,
      "che": 634,
      "because": 635,
      "His": 636,
      "need": 637,
      "flow": 638,
      "ile": 639,
      "many": 640,
      "That": 641,
      "exp": 642,
      "try": 643,
      "bear": 644,
      "small": 645,
      "ving": 646,
      "lad": 647,
      "ine": 648,
      "iz": 649,
      "imal": 650,
      "oug": 651,
      "read": 652,
      "animal": 653,
      "uck": 654,
      "ough": 655,
      "rabb": 656,
      "ber": 657,
      "until": 658,
      "self": 659,
      "bed": 660,
      "its": 661,
      "kind": 662,
      "per": 663,
      "learned": 664,
      "fast": 665,
      "bea": 666,
      "ket": 667,
      "better": 668,
      "call": 669,
      "vent": 670,
      "don": 671,
      "What": 672,
      "best": 673,
      "ass": 674,
      "urn": 675,
      "bra": 676,
      "Yes": 677,
      "say": 678,
      "fi": 679,
      "urt": 680,
      "explo": 681,
      "where": 682,
      "Mommy": 683,
      "gard": 684,
      "garden": 685,
      "beaut": 686,
      "let": 687,
      "even": 688,
      "fle": 689,
      "pt": 690,
      "thanked": 691,
      "laughed": 692,
      "nt": 693,
      "sky": 694,
      "yes": 695,
      "safe": 696,
      "jump": 697,
      "under": 698,
      "ell": 699,
      "ace": 700,
      "sur": 701,
      "loud": 702,
      "iny": 703,
      "ank": 704,
      "Can": 705,
      "list": 706,
      "ched": 707,
      "iful": 708,
      "beautiful": 709,
      "give": 710,
      "joy": 711,
      "lots": 712,
      "rong": 713,
      "fam": 714,
      "still": 715,
      "ama": 716,
      "animals": 717,
      "Joh": 718,
      "John": 719,
      "ning": 720,
      "rain": 721,
      "won": 722,
      "book": 723,
      "stay": 724,
      "Th": 725,
      "ree": 726,
      "both": 727,
      "turn": 728,
      "No": 729,
      "fin": 730,
      "two": 731,
      "ble": 732,
      "hard": 733,
      "bad": 734,
      "has": 735,
      "pu": 736,
      "ople": 737,
      "As": 738,
      "lived": 739,
      "Bo": 740,
      "cks": 741,
      "Luc": 742,
      "Thank": 743,
      "lea": 744,
      "brave": 745,
      "app": 746,
      "Lucy": 747,
      "keep": 748,
      "walked": 749,
      "hurt": 750,
      "ground": 751,
      "should": 752,
      "tru": 753,
      "ort": 754,
      "igh": 755,
      "ished": 756,
      "surpr": 757,
      "angry": 758,
      "family": 759,
      "people": 760,
      "flew": 761,
      "called": 762,
      "After": 763,
      "rm": 764,
      "con": 765,
      "soon": 766,
      "door": 767,
      "Dad": 768,
      "kept": 769,
      "real": 770,
      "share": 771,
      "arm": 772,
      "ook": 773,
      "pic": 774,
      "ised": 775,
      "imp": 776,
      "going": 777,
      "ane": 778,
      "ting": 779,
      "clos": 780,
      "pretty": 781,
      "sl": 782,
      "clean": 783,
      "lot": 784,
      "advent": 785,
      "cu": 786,
      "ummy": 787,
      "noise": 788,
      "bro": 789,
      "opened": 790,
      "mor": 791,
      "shiny": 792,
      "ste": 793,
      "wind": 794,
      "explore": 795,
      "cry": 796,
      "doll": 797,
      "place": 798,
      "before": 799,
      "illy": 800,
      "feeling": 801,
      "dra": 802,
      "also": 803,
      "les": 804,
      "lie": 805,
      "ild": 806,
      "€™": 807,
      "ied": 808,
      "idea": 809,
      "nodd": 810,
      "Bob": 811,
      "nex": 812,
      "colo": 813,
      "nodded": 814,
      "art": 815,
      "tal": 816,
      "picked": 817,
      "color": 818,
      "while": 819,
      "set": 820,
      "walking": 821,
      "next": 822,
      "fish": 823,
      "head": 824,
      "ask": 825,
      "clim": 826,
      "face": 827,
      "work": 828,
      "thr": 829,
      "uch": 830,
      "ture": 831,
      "ies": 832,
      "adventure": 833,
      "ess": 834,
      "smile": 835,
      "less": 836,
      "aybe": 837,
      "iced": 838,
      "looking": 839,
      "ak": 840,
      "mber": 841,
      "being": 842,
      "hair": 843,
      "dif": 844,
      "ever": 845,
      "food": 846,
      "walk": 847,
      "picture": 848,
      "think": 849,
      "night": 850,
      "used": 851,
      "vo": 852,
      "Spot": 853,
      "eyes": 854,
      "ught": 855,
      "listen": 856,
      "stopped": 857,
      "after": 858,
      "member": 859,
      "Do": 860,
      "flowers": 861,
      "year": 862,
      "weet": 863,
      "wonder": 864,
      "repl": 865,
      "great": 866,
      "Sue": 867,
      "wait": 868,
      "ries": 869,
      "shout": 870,
      "import": 871,
      "enjoy": 872,
      "blo": 873,
      "blue": 874,
      "forest": 875,
      "noticed": 876,
      "hands": 877,
      "ring": 878,
      "ized": 879,
      "dis": 880,
      "mon": 881,
      "near": 882,
      "quick": 883,
      "irst": 884,
      "bye": 885,
      "important": 886,
      "remember": 887,
      "sound": 888,
      "Look": 889,
      "slide": 890,
      "replied": 891,
      "sho": 892,
      "amaz": 893,
      "lease": 894,
      "watch": 895,
      "showed": 896,
      "okay": 897,
      "cho": 898,
      "gan": 899,
      "leave": 900,
      "top": 901,
      "voice": 902,
      "Sarah": 903,
      "ip": 904,
      "This": 905,
      "fere": 906,
      "cook": 907,
      "tell": 908,
      "differe": 909,
      "mean": 910,
      "llow": 911,
      "cream": 912,
      "swing": 913,
      "rest": 914,
      "stick": 915,
      "watched": 916,
      "sing": 917,
      "cake": 918,
      "bright": 919,
      "follow": 920,
      "truck": 921,
      "everyone": 922,
      "pul": 923,
      "store": 924,
      "cou": 925,
      "bow": 926,
      "been": 927,
      "sn": 928,
      "boat": 929,
      "quickly": 930,
      "strong": 931,
      "sure": 932,
      "ner": 933,
      "Jane": 934,
      "rabbit": 935,
      "different": 936,
      "stand": 937,
      "tor": 938,
      "Maybe": 939,
      "curi": 940,
      "goodbye": 941,
      "became": 942,
      "ward": 943,
      "high": 944,
      "closer": 945,
      "bre": 946,
      "oft": 947,
      "mag": 948,
      "does": 949,
      "unny": 950,
      "warm": 951,
      "ff": 952,
      "ance": 953,
      "Joe": 954,
      "ung": 955,
      "curious": 956,
      "ph": 957,
      "mis": 958,
      "ila": 959,
      "laugh": 960,
      "fav": 961,
      "andma": 962,
      "three": 963,
      "dress": 964,
      "Lila": 965,
      "tw": 966,
      "pie": 967,
      "ond": 968,
      "leep": 969,
      "open": 970,
      "ready": 971,
      "anymore": 972,
      "first": 973,
      "ached": 974,
      "flower": 975,
      "grabb": 976,
      "flo": 977,
      "butter": 978,
      "ired": 979,
      "hear": 980,
      "bit": 981,
      "In": 982,
      "kid": 983,
      "kit": 984,
      "pain": 985,
      "grabbed": 986,
      "squ": 987,
      "Don": 988,
      "ered": 989,
      "par": 990,
      "yel": 991,
      "isy": 992,
      "med": 993,
      "times": 994,
      "only": 995,
      "light": 996,
      "fell": 997,
      "table": 998,
      "Everyone": 999,
      "Hel": 1000,
      "tow": 1001,
      "birds": 1002,
      "deli": 1003,
      "jumped": 1004,
      "fire": 1005,
      "ft": 1006,
      "glad": 1007,
      "ster": 1008,
      "sand": 1009,
      "chen": 1010,
      "kitchen": 1011,
      "dro": 1012,
      "pare": 1013,
      "air": 1014,
      "cut": 1015,
      "rock": 1016,
      "helped": 1017,
      "stop": 1018,
      "cket": 1019,
      "tr": 1020,
      "cont": 1021,
      "cr": 1022,
      "happened": 1023,
      "key": 1024,
      "Tommy": 1025,
      "fl": 1026,
      "bunny": 1027,
      "sees": 1028,
      "shouted": 1029,
      "story": 1030,
      "bal": 1031,
      "grass": 1032,
      "ash": 1033,
      "having": 1034,
      "reached": 1035,
      "yummy": 1036,
      "prin": 1037,
      "realized": 1038,
      "brother": 1039,
      "lady": 1040,
      "shed": 1041,
      "draw": 1042,
      "mum": 1043,
      "favor": 1044,
      "sweet": 1045,
      "din": 1046,
      "favorite": 1047,
      "ary": 1048,
      "through": 1049,
      "game": 1050,
      "coming": 1051,
      "cra": 1052,
      "piece": 1053,
      "zy": 1054,
      "bor": 1055,
      "que": 1056,
      "soft": 1057,
      "really": 1058,
      "Wh": 1059,
      "began": 1060,
      "pretend": 1061,
      "Now": 1062,
      "world": 1063,
      "tra": 1064,
      "olly": 1065,
      "ins": 1066,
      "done": 1067,
      "looks": 1068,
      "himself": 1069,
      "wel": 1070,
      "magic": 1071,
      "making": 1072,
      "col": 1073,
      "kids": 1074,
      "rel": 1075,
      "duck": 1076,
      "pond": 1077,
      "ba": 1078,
      "why": 1079,
      "nts": 1080,
      "prom": 1081,
      "waved": 1082,
      "fro": 1083,
      "tired": 1084,
      "move": 1085,
      "ater": 1086,
      "fix": 1087,
      "fill": 1088,
      "worry": 1089,
      "mouse": 1090,
      "ped": 1091,
      "cked": 1092,
      "cars": 1093,
      "Fin": 1094,
      "name": 1095,
      "paper": 1096,
      "Wow": 1097,
      "parents": 1098,
      "cold": 1099,
      "aisy": 1100,
      "Sally": 1101,
      "touch": 1102,
      "thank": 1103,
      "ike": 1104,
      "catch": 1105,
      "funny": 1106,
      "seen": 1107,
      "pro": 1108,
      "ple": 1109,
      "stre": 1110,
      "gu": 1111,
      "hold": 1112,
      "another": 1113,
      "There": 1114,
      "river": 1115,
      "hopped": 1116,
      "cried": 1117,
      "oney": 1118,
      "ds": 1119,
      "cool": 1120,
      "doing": 1121,
      "blocks": 1122,
      "\".": 1123,
      "farm": 1124,
      "surprise": 1125,
      "ons": 1126,
      "age": 1127,
      "cor": 1128,
      "green": 1129,
      "uff": 1130,
      "anc": 1131,
      "years": 1132,
      "mess": 1133,
      "turned": 1134,
      "close": 1135,
      "wood": 1136,
      "hind": 1137,
      "floor": 1138,
      "sat": 1139,
      "climb": 1140,
      "full": 1141,
      "trees": 1142,
      "ppy": 1143,
      "running": 1144,
      "worked": 1145,
      "lesson": 1146,
      "window": 1147,
      "wear": 1148,
      "dark": 1149,
      "behind": 1150,
      "likes": 1151,
      "wished": 1152,
      "aby": 1153,
      "ign": 1154,
      "yellow": 1155,
      "andy": 1156,
      "ation": 1157,
      "ger": 1158,
      "bag": 1159,
      "swim": 1160,
      "happily": 1161,
      "Daisy": 1162,
      "Jim": 1163,
      "Em": 1164,
      "cast": 1165,
      "To": 1166,
      "surprised": 1167,
      "sleep": 1168,
      "Benny": 1169,
      "frog": 1170,
      "butterfly": 1171,
      "pet": 1172,
      "cious": 1173,
      "arri": 1174,
      "yard": 1175,
      "carefully": 1176,
      "hole": 1177,
      "Hello": 1178,
      "remembered": 1179,
      "lost": 1180,
      "slow": 1181,
      "held": 1182,
      "race": 1183,
      "At": 1184,
      "needed": 1185,
      "cla": 1186,
      "buy": 1187,
      "Billy": 1188,
      "left": 1189,
      "far": 1190,
      "bar": 1191,
      "reed": 1192,
      "dream": 1193,
      "fair": 1194,
      "anything": 1195,
      "spot": 1196,
      "enjoyed": 1197,
      "wrong": 1198,
      "chil": 1199,
      "tri": 1200,
      "dren": 1201,
      "Finally": 1202,
      "followed": 1203,
      "children": 1204,
      "stran": 1205,
      "ross": 1206,
      "delicious": 1207,
      "bug": 1208,
      "hung": 1209,
      "Molly": 1210,
      "please": 1211,
      "finished": 1212,
      "mar": 1213,
      "bot": 1214,
      "friendly": 1215,
      "contin": 1216,
      "dir": 1217,
      "snow": 1218,
      "herself": 1219,
      "tall": 1220,
      "cess": 1221,
      "agreed": 1222,
      "mou": 1223,
      "vis": 1224,
      "spo": 1225,
      "hill": 1226,
      "Amy": 1227,
      "understand": 1228,
      "oken": 1229,
      "hot": 1230,
      "ued": 1231,
      "else": 1232,
      "hid": 1233,
      "oo": 1234,
      "ens": 1235,
      "arrived": 1236,
      "ined": 1237,
      "gent": 1238,
      "wonderful": 1239,
      "broken": 1240,
      "ings": 1241,
      "might": 1242,
      "tight": 1243,
      "em": 1244,
      "forgot": 1245,
      "land": 1246,
      "ield": 1247,
      "baby": 1248,
      "gl": 1249,
      "colors": 1250,
      "Jen": 1251,
      "ient": 1252,
      "most": 1253,
      "sit": 1254,
      "build": 1255,
      "gone": 1256,
      "filled": 1257,
      "erous": 1258,
      "ather": 1259,
      "song": 1260,
      "mat": 1261,
      "Why": 1262,
      "squir": 1263,
      "wards": 1264,
      "fr": 1265,
      "books": 1266,
      "ange": 1267,
      "someone": 1268,
      "row": 1269,
      "continued": 1270,
      "creat": 1271,
      "asure": 1272,
      "pat": 1273,
      "castle": 1274,
      "lion": 1275,
      "fight": 1276,
      "wants": 1277,
      "mother": 1278,
      "Gr": 1279,
      "pink": 1280,
      "squirrel": 1281,
      "leaves": 1282,
      "getting": 1283,
      "ves": 1284,
      "enough": 1285,
      "Go": 1286,
      "morning": 1287,
      "fru": 1288,
      "OK": 1289,
      "moment": 1290,
      "av": 1291,
      "finally": 1292,
      "fall": 1293,
      "stayed": 1294,
      "cha": 1295,
      "cookies": 1296,
      "break": 1297,
      "gon": 1298,
      "poin": 1299,
      "beach": 1300,
      "few": 1301,
      "sometimes": 1302,
      "scary": 1303,
      "je": 1304,
      "ju": 1305,
      "fect": 1306,
      "dinner": 1307,
      "tast": 1308,
      "hungry": 1309,
      "ence": 1310,
      "grandma": 1311,
      "Come": 1312,
      "wet": 1313,
      "amazing": 1314,
      "ze": 1315,
      "trying": 1316,
      "pack": 1317,
      "whe": 1318,
      "plain": 1319,
      "daddy": 1320,
      "perfect": 1321,
      "dr": 1322,
      "makes": 1323,
      "others": 1324,
      "asks": 1325,
      "climbed": 1326,
      "pes": 1327,
      "pictures": 1328,
      "cover": 1329,
      "talk": 1330,
      "tail": 1331,
      "listened": 1332,
      "kay": 1333,
      "mus": 1334,
      "tle": 1335,
      "ton": 1336,
      "icy": 1337,
      "white": 1338,
      "fur": 1339,
      "smiles": 1340,
      "Jill": 1341,
      "ballo": 1342,
      "roll": 1343,
      "wall": 1344,
      "clothe": 1345,
      "alone": 1346,
      "appear": 1347,
      "bus": 1348,
      "plan": 1349,
      "clothes": 1350,
      "oup": 1351,
      "spl": 1352,
      "puppy": 1353,
      "ious": 1354,
      "ot": 1355,
      "train": 1356,
      "Oh": 1357,
      "ated": 1358,
      "wasn": 1359,
      "brought": 1360,
      "everything": 1361,
      "strange": 1362,
      "sear": 1363,
      "met": 1364,
      "spark": 1365,
      "dang": 1366,
      "grow": 1367,
      "deep": 1368,
      "woods": 1369,
      "pulled": 1370,
      "bike": 1371,
      "sail": 1372,
      "Be": 1373,
      "ride": 1374,
      "pping": 1375,
      "Daddy": 1376,
      "treat": 1377,
      "fox": 1378,
      "mi": 1379,
      "ose": 1380,
      "af": 1381,
      "Mama": 1382,
      "uffy": 1383,
      "Soon": 1384,
      "ucky": 1385,
      "pen": 1386,
      "hor": 1387,
      "Some": 1388,
      "waited": 1389,
      "music": 1390,
      "gi": 1391,
      "amazed": 1392,
      "danc": 1393,
      "teddy": 1394,
      "hide": 1395,
      "nap": 1396,
      "ses": 1397,
      "bath": 1398,
      "towards": 1399,
      "field": 1400,
      "pur": 1401,
      "thy": 1402,
      "All": 1403,
      "flying": 1404,
      "zz": 1405,
      "sis": 1406,
      "owner": 1407,
      "whis": 1408,
      "miss": 1409,
      "silly": 1410,
      "shared": 1411,
      "runs": 1412,
      "belie": 1413,
      "cloud": 1414,
      "iss": 1415,
      "visit": 1416,
      "lake": 1417,
      "living": 1418,
      "job": 1419,
      "ames": 1420,
      "promised": 1421,
      "pers": 1422,
      "moral": 1423,
      "Okay": 1424,
      "dance": 1425,
      "thinks": 1426,
      "iet": 1427,
      "Mary": 1428,
      "sister": 1429,
      "ually": 1430,
      "party": 1431,
      "mind": 1432,
      "quiet": 1433,
      "ises": 1434,
      "ps": 1435,
      "money": 1436,
      "Sure": 1437,
      "board": 1438,
      "must": 1439,
      "gs": 1440,
      "worried": 1441,
      "Just": 1442,
      "chair": 1443,
      "ateful": 1444,
      "ap": 1445,
      "answ": 1446,
      "grateful": 1447,
      "slowly": 1448,
      "colorful": 1449,
      "cup": 1450,
      "faster": 1451,
      "ment": 1452,
      "pieces": 1453,
      "bran": 1454,
      "Mr": 1455,
      "pass": 1456,
      "lice": 1457,
      "explain": 1458,
      "hes": 1459,
      "broke": 1460,
      "ctor": 1461,
      "such": 1462,
      "gif": 1463,
      "bigger": 1464,
      "ich": 1465,
      "snack": 1466,
      "reach": 1467,
      "pull": 1468,
      "thre": 1469,
      "dry": 1470,
      "heav": 1471,
      "monster": 1472,
      "plant": 1473,
      "join": 1474,
      "win": 1475,
      "ele": 1476,
      "black": 1477,
      "candy": 1478,
      "words": 1479,
      "blan": 1480,
      "scream": 1481,
      "treasure": 1482,
      "magical": 1483,
      "dangerous": 1484,
      "sign": 1485,
      "Mum": 1486,
      "dragon": 1487,
      "gra": 1488,
      "across": 1489,
      "everywhere": 1490,
      "helping": 1491,
      "Jimmy": 1492,
      "dri": 1493,
      "farmer": 1494,
      "Hi": 1495,
      "Grandma": 1496,
      "smart": 1497,
      "start": 1498,
      "mouth": 1499,
      "smel": 1500,
      "min": 1501,
      "rot": 1502,
      "ourse": 1503,
      "bee": 1504,
      "ng": 1505,
      "igg": 1506,
      "stepped": 1507,
      "threw": 1508,
      "heavy": 1509,
      "tower": 1510,
      "dolls": 1511,
      "bowl": 1512,
      "appeared": 1513,
      "bite": 1514,
      "dirty": 1515,
      "same": 1516,
      "swa": 1517,
      "twins": 1518,
      "believe": 1519,
      "crying": 1520,
      "mix": 1521,
      "Please": 1522,
      "ident": 1523,
      "sc": 1524,
      "doctor": 1525,
      "shar": 1526,
      "princess": 1527,
      "heal": 1528,
      "wouldn": 1529,
      "har": 1530,
      "hig": 1531,
      "chool": 1532,
      "closed": 1533,
      "unch": 1534,
      "ub": 1535,
      "stuck": 1536,
      "school": 1537,
      "press": 1538,
      "bas": 1539,
      "spr": 1540,
      "balloon": 1541,
      "stu": 1542,
      "swam": 1543,
      "teac": 1544,
      "Emma": 1545,
      "brown": 1546,
      "sy": 1547,
      "hoped": 1548,
      "suddenly": 1549,
      "iting": 1550,
      "paint": 1551,
      "town": 1552,
      "pow": 1553,
      "eating": 1554,
      "feels": 1555,
      "course": 1556,
      "clapped": 1557,
      "plane": 1558,
      "cray": 1559,
      "da": 1560,
      "stood": 1561,
      "wr": 1562,
      "ek": 1563,
      "gentle": 1564,
      "fairy": 1565,
      "val": 1566,
      "comfor": 1567,
      "ventually": 1568,
      "button": 1569,
      "takes": 1570,
      "basket": 1571,
      "child": 1572,
      "free": 1573,
      "drove": 1574,
      "welcome": 1575,
      "pushed": 1576,
      "shine": 1577,
      "round": 1578,
      "neigh": 1579,
      "kno": 1580,
      "Inside": 1581,
      "higher": 1582,
      "without": 1583,
      "kiss": 1584,
      "today": 1585,
      "cident": 1586,
      "swings": 1587,
      "stead": 1588,
      "blanket": 1589,
      "str": 1590,
      "teacher": 1591,
      "ire": 1592,
      "ches": 1593,
      "phone": 1594,
      "sea": 1595,
      "games": 1596,
      "cheered": 1597,
      "ben": 1598,
      "moved": 1599,
      "wings": 1600,
      "jour": 1601,
      "explained": 1602,
      "longer": 1603,
      "ible": 1604,
      "accident": 1605,
      "wise": 1606,
      "late": 1607,
      "along": 1608,
      "well": 1609,
      "wish": 1610,
      "Their": 1611,
      "Fl": 1612,
      "noises": 1613,
      "itting": 1614,
      "sang": 1615,
      "ling": 1616,
      "happen": 1617,
      "throw": 1618,
      "pol": 1619,
      "stone": 1620,
      "hugs": 1621,
      "turns": 1622,
      "ney": 1623,
      "phant": 1624,
      "stories": 1625,
      "mine": 1626,
      "shoes": 1627,
      "lone": 1628,
      "apple": 1629,
      "though": 1630,
      "forget": 1631,
      "singing": 1632,
      "adventures": 1633,
      "neck": 1634,
      "trou": 1635,
      "jar": 1636,
      "upset": 1637,
      "fence": 1638,
      "lunch": 1639,
      "lonely": 1640,
      "del": 1641,
      "El": 1642,
      "elephant": 1643,
      "secre": 1644,
      "heart": 1645,
      "street": 1646,
      "oun": 1647,
      "young": 1648,
      "belong": 1649,
      "Pe": 1650,
      "ntain": 1651,
      "dist": 1652,
      "shop": 1653,
      "Fluffy": 1654,
      "itch": 1655,
      "nee": 1656,
      "monkey": 1657,
      "ours": 1658,
      "shook": 1659,
      "exploring": 1660,
      "Sammy": 1661,
      "pocket": 1662,
      "sent": 1663,
      "add": 1664,
      "nearby": 1665,
      "soup": 1666,
      "ughty": 1667,
      "Le": 1668,
      "owl": 1669,
      "naughty": 1670,
      "My": 1671,
      "bring": 1672,
      "stars": 1673,
      "fused": 1674,
      "ship": 1675,
      "caught": 1676,
      "woke": 1677,
      "backyard": 1678,
      "seemed": 1679,
      "des": 1680,
      "body": 1681,
      "cal": 1682,
      "dropped": 1683,
      "relie": 1684,
      "rocks": 1685,
      "att": 1686,
      "ughter": 1687,
      "drink": 1688,
      "bs": 1689,
      "coat": 1690,
      "ming": 1691,
      "daughter": 1692,
      "taking": 1693,
      "purple": 1694,
      "mail": 1695,
      "fit": 1696,
      "ions": 1697,
      "orange": 1698,
      "shapes": 1699,
      "hello": 1700,
      "driver": 1701,
      "cow": 1702,
      "pil": 1703,
      "bench": 1704,
      "hit": 1705,
      "fing": 1706,
      "comes": 1707,
      "sounds": 1708,
      "ier": 1709,
      "wondered": 1710,
      "busy": 1711,
      "hur": 1712,
      "tiny": 1713,
      "mil": 1714,
      "Later": 1715,
      "past": 1716,
      "nest": 1717,
      "ull": 1718,
      "erful": 1719,
      "rainbow": 1720,
      "nose": 1721,
      "sitting": 1722,
      "ese": 1723,
      "amp": 1724,
      "touc": 1725,
      "kite": 1726,
      "juice": 1727,
      "mer": 1728,
      "nothing": 1729,
      "holding": 1730,
      "sco": 1731,
      "smell": 1732,
      "brea": 1733,
      "arms": 1734,
      "mach": 1735,
      "pra": 1736,
      "chas": 1737,
      "thday": 1738,
      "pig": 1739,
      "sug": 1740,
      "With": 1741,
      "Good": 1742,
      "count": 1743,
      "band": 1744,
      "cir": 1745,
      "cute": 1746,
      "ining": 1747,
      "loves": 1748,
      "secret": 1749,
      "oom": 1750,
      "branch": 1751,
      "pper": 1752,
      "quest": 1753,
      "shell": 1754,
      "raid": 1755,
      "relieved": 1756,
      "Of": 1757,
      "afraid": 1758,
      "idge": 1759,
      "ars": 1760,
      "promise": 1761,
      "forever": 1762,
      "How": 1763,
      "carry": 1764,
      "sick": 1765,
      "Jenny": 1766,
      "days": 1767,
      "gift": 1768,
      "boun": 1769,
      "hu": 1770,
      "uni": 1771,
      "peace": 1772,
      "Tweet": 1773,
      "Ted": 1774,
      "bucket": 1775,
      "touched": 1776,
      "huge": 1777,
      "orn": 1778,
      "covered": 1779,
      "push": 1780,
      "patient": 1781,
      "live": 1782,
      "birthday": 1783,
      "eg": 1784,
      "letter": 1785,
      "cheese": 1786,
      "terest": 1787,
      "interest": 1788,
      "sunny": 1789,
      "exciting": 1790,
      "onto": 1791,
      "bush": 1792,
      "life": 1793,
      "wra": 1794,
      "laughing": 1795,
      "wand": 1796,
      "act": 1797,
      "su": 1798,
      "gest": 1799,
      "creature": 1800,
      "ittens": 1801,
      "bread": 1802,
      "Hey": 1803,
      "gged": 1804,
      "kick": 1805,
      "imag": 1806,
      "vel": 1807,
      "hope": 1808,
      "craw": 1809,
      "cozy": 1810,
      "ness": 1811,
      "Emily": 1812,
      "swimming": 1813,
      "journey": 1814,
      "suc": 1815,
      "coun": 1816,
      "bottle": 1817,
      "gives": 1818,
      "instead": 1819,
      "milk": 1820,
      "net": 1821,
      "eas": 1822,
      "watching": 1823,
      "spin": 1824,
      "lucky": 1825,
      "ced": 1826,
      "accidentally": 1827,
      "ian": 1828,
      "sunshine": 1829,
      "cave": 1830,
      "va": 1831,
      "ade": 1832,
      "sharp": 1833,
      "talked": 1834,
      "puts": 1835,
      "gen": 1836,
      "colle": 1837,
      "pudd": 1838,
      "pointed": 1839,
      "honey": 1840,
      "gather": 1841,
      "road": 1842,
      "di": 1843,
      "bru": 1844,
      "neighbor": 1845,
      "ye": 1846,
      "bought": 1847,
      "smiling": 1848,
      "anyone": 1849,
      "searched": 1850,
      "later": 1851,
      "sli": 1852,
      "sandw": 1853,
      "nic": 1854,
      "itten": 1855,
      "apples": 1856,
      "shelf": 1857,
      "part": 1858,
      "storm": 1859,
      "Where": 1860,
      "snake": 1861,
      "shes": 1862,
      "blem": 1863,
      "problem": 1864,
      "meet": 1865,
      "ize": 1866,
      "wide": 1867,
      "word": 1868,
      "irt": 1869,
      "inv": 1870,
      "wom": 1871,
      "ugg": 1872,
      "woman": 1873,
      "healthy": 1874,
      "interesting": 1875,
      "œI": 1876,
      "spoon": 1877,
      "circle": 1878,
      "tasty": 1879,
      "pile": 1880,
      "vill": 1881,
      "ducks": 1882,
      "zoom": 1883,
      "eag": 1884,
      "rope": 1885,
      "num": 1886,
      "spid": 1887,
      "clever": 1888,
      "prote": 1889,
      "matter": 1890,
      "trouble": 1891,
      "bled": 1892,
      "andpa": 1893,
      "crayons": 1894,
      "ast": 1895,
      "clouds": 1896,
      "person": 1897,
      "roar": 1898,
      "log": 1899,
      "gigg": 1900,
      "path": 1901,
      "fron": 1902,
      "Are": 1903,
      "feather": 1904,
      "front": 1905,
      "ert": 1906,
      "comfortable": 1907,
      "shining": 1908,
      "smelled": 1909,
      "dest": 1910,
      "wash": 1911,
      "Jake": 1912,
      "present": 1913,
      "tea": 1914,
      "pract": 1915,
      "spotted": 1916,
      "splash": 1917,
      "minut": 1918,
      "screamed": 1919,
      "zoo": 1920,
      "respe": 1921,
      "organ": 1922,
      "war": 1923,
      "mud": 1924,
      "orm": 1925,
      "lock": 1926,
      "danced": 1927,
      "hop": 1928,
      "seat": 1929,
      "which": 1930,
      "wheel": 1931,
      "berries": 1932,
      "puzz": 1933,
      "Mittens": 1934,
      "myster": 1935,
      "teach": 1936,
      "snowman": 1937,
      "Ro": 1938,
      "isa": 1939,
      "thin": 1940,
      "last": 1941,
      "lay": 1942,
      "pan": 1943,
      "asleep": 1944,
      "horse": 1945,
      "ned": 1946,
      "lovely": 1947,
      "answer": 1948,
      "rolled": 1949,
      "Together": 1950,
      "gently": 1951,
      "bark": 1952,
      "wearing": 1953,
      "places": 1954,
      "giant": 1955,
      "goes": 1956,
      "search": 1957,
      "fli": 1958,
      "whole": 1959,
      "wild": 1960,
      "ser": 1961,
      "Lisa": 1962,
      "gy": 1963,
      "string": 1964,
      "pill": 1965,
      "Sometimes": 1966,
      "If": 1967,
      "fruit": 1968,
      "corner": 1969,
      "impress": 1970,
      "dirt": 1971,
      "respect": 1972,
      "tun": 1973,
      "worm": 1974,
      "tries": 1975,
      "ones": 1976,
      "corn": 1977,
      "confused": 1978,
      "card": 1979,
      "Mummy": 1980,
      "vie": 1981,
      "bubb": 1982,
      "tasted": 1983,
      "slid": 1984,
      "rubb": 1985,
      "cean": 1986,
      "eth": 1987,
      "ocean": 1988,
      "picnic": 1989,
      "forgive": 1990,
      "rude": 1991,
      "tool": 1992,
      "ased": 1993,
      "machine": 1994,
      "spent": 1995,
      "teeth": 1996,
      "drive": 1997,
      "rich": 1998,
      "itty": 1999,
      "bel": 2000,
      "step": 2001,
      "uce": 2002,
      "wave": 2003,
      "oven": 2004,
      "pour": 2005,
      "calm": 2006,
      "pretended": 2007,
      "delight": 2008,
      "pop": 2009,
      "cookie": 2010,
      "spider": 2011,
      "feet": 2012,
      "furry": 2013,
      "lar": 2014,
      "faces": 2015,
      "izz": 2016,
      "Peter": 2017,
      "fold": 2018,
      "Little": 2019,
      "shy": 2020,
      "erly": 2021,
      "swe": 2022,
      "helpful": 2023,
      "eventually": 2024,
      "finish": 2025,
      "test": 2026,
      "chick": 2027,
      "Here": 2028,
      "ity": 2029,
      "mountain": 2030,
      "hang": 2031,
      "peaceful": 2032,
      "talking": 2033,
      "shr": 2034,
      "pread": 2035,
      "stair": 2036,
      "mel": 2037,
      "res": 2038,
      "lace": 2039,
      "morrow": 2040,
      "tomorrow": 2041,
      "spread": 2042,
      "chocol": 2043,
      "tid": 2044,
      "ladder": 2045,
      "protect": 2046,
      "ipped": 2047
    },
    "merges": [
      "h e",
      "a n",
      "t he",
      "e d",
      "an d",
      "t o",
      "i n",
      "r e",
      "o u",
      "w a",
      "i t",
      "h a",
      "e r",
      "wa s",
      "o m",
      "e n",
      "o n",
      "a r",
      "T he",
      "i s",
      "in g",
      "i l",
      "s a",
      "i d",
      "l e",
      "a y",
      "i m",
      "l o",
      "a l",
      "s t",
      "o r",
      "he r",
      "H e",
      "S he",
      "i r",
      "t h",
      "The y",
      "b e",
      "n e",
      "ha t",
      "v er",
      "u t",
      "s e",
      "k e",
      "a t",
      "n o",
      "c k",
      "l d",
      "c e",
      "sa id",
      "a m",
      "v e",
      "r i",
      "il y",
      "s he",
      "p l",
      "it h",
      "p p",
      "o f",
      "a d",
      "w ith",
      "i g",
      "h is",
      "L ily",
      "u n",
      "y ou",
      "k ed",
      "s o",
      "l y",
      "d ay",
      "ver y",
      "w e",
      "om e",
      "l i",
      "m y",
      "t hat",
      "g o",
      "u p",
      "o w",
      "an t",
      "c h",
      "e s",
      "a s",
      "ha d",
      "pl ay",
      "the y",
      "f or",
      "m om",
      "f e",
      "n d",
      "ou ld",
      "al l",
      "en d",
      "b o",
      "ha pp",
      "en t",
      "w ant",
      "it t",
      "g e",
      "o k",
      "a re",
      "t im",
      "I t",
      "ou t",
      "d o",
      "no t",
      "r o",
      "ou nd",
      "itt le",
      "the r",
      "tim e",
      "l ittle",
      "the re",
      "r y",
      "h t",
      "r a",
      "s h",
      "happ y",
      "s m",
      "b ig",
      "b ut",
      "y s",
      "f ri",
      "a ke",
      "sa w",
      "fri end",
      ". \"",
      "t er",
      "a ck",
      "th ing",
      "s ome",
      "u l",
      "O ne",
      "id e",
      "on e",
      "T im",
      "! \"",
      "O n",
      "u g",
      "v ed",
      "we re",
      "On ce",
      "h o",
      "c ar",
      "h im",
      "ir l",
      "e l",
      "want ed",
      "p e",
      "T om",
      "g irl",
      "up on",
      "f ul",
      "the m",
      "u r",
      "B en",
      "in d",
      "the ir",
      "il l",
      "a g",
      "sm il",
      "d id",
      "c ould",
      "m e",
      "c o",
      "ha ve",
      "e x",
      "m o",
      "he n",
      "B ut",
      "he l",
      "c an",
      "r om",
      "w ent",
      "t ed",
      "ne w",
      "o d",
      "d e",
      "n am",
      "? \"",
      "hel p",
      "friend s",
      "u m",
      "a b",
      "he d",
      "wa y",
      "b ack",
      "fe l",
      "a in",
      "li ke",
      "Y ou",
      "f un",
      "f o",
      "s ide",
      "m an",
      "ar k",
      "i c",
      "to o",
      "r an",
      "g ht",
      "p o",
      "Tim my",
      "st ar",
      "smil ed",
      "nam ed",
      "lo ved",
      "lo w",
      "lo o",
      "as ked",
      "e t",
      "M om",
      "ar d",
      "l a",
      "fel t",
      "s to",
      "se e",
      "loo ked",
      "i ck",
      "ow n",
      "ar ound",
      "am e",
      "p r",
      "m ake",
      "u re",
      "b ir",
      "w ould",
      "w or",
      "f a",
      "bo y",
      "no w",
      "on g",
      "o ther",
      "bir d",
      "g r",
      "p ark",
      "l l",
      "o p",
      "w hat",
      "i ce",
      "m ad",
      "t re",
      ", \"",
      "a way",
      "ge ther",
      "c a",
      "s s",
      "d d",
      "sa ys",
      "star ted",
      "ou d",
      "c ame",
      "mad e",
      "ig ht",
      "some thing",
      "to gether",
      "n a",
      "ge t",
      "it ed",
      "lo ok",
      "p ut",
      "sa d",
      "ex c",
      "go t",
      "f rom",
      "t s",
      "s car",
      "a ch",
      "i f",
      "h ome",
      "m u",
      "ag ain",
      "u e",
      "i e",
      "wa l",
      "go od",
      "w ho",
      "f ound",
      "ri ed",
      "the n",
      "de c",
      "pp ed",
      "c i",
      "mo re",
      "w hen",
      "h ug",
      "e p",
      "play ing",
      "ou ght",
      "k ing",
      "al ly",
      "a ve",
      "b y",
      "thing s",
      "exc ited",
      "li ked",
      "r u",
      "S am",
      "d er",
      "ou s",
      "n y",
      "ar a",
      "id ed",
      "A n",
      "u s",
      "dec ided",
      "ou se",
      "e very",
      "you r",
      "c are",
      "scar ed",
      "do g",
      "d own",
      "u se",
      "a x",
      "f ind",
      "s ha",
      "p re",
      "th an",
      "a c",
      "t ake",
      "s pe",
      "W e",
      "at e",
      "S ara",
      "fe el",
      "j o",
      "u dd",
      "An na",
      "wa ys",
      "d ad",
      "ar n",
      "w o",
      "M ax",
      "ou r",
      "w ill",
      "an g",
      "c lo",
      "he re",
      "did n",
      "al ways",
      "ab out",
      "to ok",
      "b b",
      "it e",
      "mom my",
      "q u",
      "to ys",
      "is e",
      "o ld",
      "t e",
      "m a",
      "S o",
      "k now",
      "out side",
      "tre e",
      "er s",
      "th ought",
      "le arn",
      "i ve",
      "s or",
      "u st",
      "en ed",
      "w h",
      "ro om",
      "fo re",
      "c at",
      "t y",
      "J o",
      "la ug",
      "spe ci",
      "speci al",
      "W hen",
      "udd en",
      "k new",
      "g ed",
      "r ed",
      "an y",
      "r un",
      "b all",
      "c ome",
      "H er",
      "p a",
      "b u",
      "udden ly",
      "b r",
      "in k",
      "to y",
      "h ouse",
      "is h",
      "ne ver",
      "f ter",
      "h ow",
      "o l",
      "sh ow",
      "l f",
      "r d",
      "is t",
      "J ack",
      "sor ry",
      "c re",
      "b l",
      "s w",
      "mu ch",
      "E very",
      "h and",
      "i a",
      "d re",
      "care ful",
      "v en",
      "ab le",
      "c le",
      "s k",
      "g ave",
      "s un",
      "l ong",
      "in to",
      "t ried",
      "in side",
      "wa ter",
      "to ld",
      "c l",
      "th is",
      "o ver",
      "bo x",
      "t a",
      "pr oud",
      "could n",
      "he ard",
      "d y",
      "e ar",
      "t ter",
      "e ach",
      "s p",
      "L et",
      "lo ve",
      "e at",
      "S uddenly",
      "g re",
      "um p",
      "p ick",
      "l ed",
      "play ed",
      "pre t",
      "i on",
      "The n",
      "ca use",
      "M ia",
      "j ust",
      "u c",
      "hug ged",
      "of f",
      "un t",
      "ri ght",
      "wa t",
      "f ly",
      "c om",
      "n ice",
      "F rom",
      "A nd",
      "po t",
      "c t",
      "c he",
      "be cause",
      "H is",
      "ne ed",
      "f low",
      "il e",
      "man y",
      "T hat",
      "ex p",
      "t ry",
      "be ar",
      "sm all",
      "v ing",
      "l ad",
      "in e",
      "i z",
      "im al",
      "ou g",
      "re ad",
      "an imal",
      "u ck",
      "oug h",
      "ra bb",
      "b er",
      "unt il",
      "se lf",
      "b ed",
      "it s",
      "k ind",
      "p er",
      "learn ed",
      "fa st",
      "be a",
      "ke t",
      "be tter",
      "c all",
      "v ent",
      "d on",
      "W hat",
      "be st",
      "as s",
      "ur n",
      "b ra",
      "Y es",
      "sa y",
      "f i",
      "ur t",
      "exp lo",
      "w here",
      "Mom my",
      "g ard",
      "gard en",
      "bea ut",
      "le t",
      "e ven",
      "f le",
      "p t",
      "than ked",
      "laug hed",
      "n t",
      "sk y",
      "y es",
      "sa fe",
      "j ump",
      "un der",
      "el l",
      "a ce",
      "s ur",
      "l oud",
      "in y",
      "an k",
      "C an",
      "l ist",
      "c hed",
      "i ful",
      "beaut iful",
      "g ive",
      "jo y",
      "lo ts",
      "r ong",
      "f am",
      "st ill",
      "am a",
      "animal s",
      "Jo h",
      "Joh n",
      "n ing",
      "ra in",
      "w on",
      "bo ok",
      "st ay",
      "T h",
      "re e",
      "bo th",
      "t urn",
      "N o",
      "f in",
      "t wo",
      "b le",
      "ha rd",
      "b ad",
      "ha s",
      "p u",
      "op le",
      "A s",
      "li ved",
      "B o",
      "ck s",
      "L uc",
      "Th ank",
      "le a",
      "bra ve",
      "a pp",
      "Luc y",
      "ke ep",
      "wal ked",
      "h urt",
      "gr ound",
      "sh ould",
      "t ru",
      "or t",
      "ig h",
      "is hed",
      "sur pr",
      "ang ry",
      "fam ily",
      "pe ople",
      "fle w",
      "call ed",
      "A fter",
      "r m",
      "c on",
      "so on",
      "do or",
      "D ad",
      "ke pt",
      "re al",
      "sha re",
      "ar m",
      "o ok",
      "p ic",
      "is ed",
      "im p",
      "go ing",
      "an e",
      "t ing",
      "clo s",
      "pret ty",
      "s l",
      "cle an",
      "lo t",
      "ad vent",
      "c u",
      "um my",
      "no ise",
      "b ro",
      "op ened",
      "m or",
      "sh iny",
      "st e",
      "w ind",
      "explo re",
      "c ry",
      "do ll",
      "pl ace",
      "be fore",
      "il ly",
      "feel ing",
      "d ra",
      "al so",
      "le s",
      "li e",
      "il d",
      "€ ™",
      "i ed",
      "ide a",
      "no dd",
      "Bo b",
      "ne x",
      "co lo",
      "nodd ed",
      "ar t",
      "t al",
      "pick ed",
      "colo r",
      "wh ile",
      "se t",
      "wal king",
      "nex t",
      "f ish",
      "he ad",
      "as k",
      "cl im",
      "fa ce",
      "wor k",
      "th r",
      "u ch",
      "t ure",
      "i es",
      "advent ure",
      "es s",
      "smil e",
      "le ss",
      "ay be",
      "ic ed",
      "look ing",
      "a k",
      "m ber",
      "be ing",
      "ha ir",
      "d if",
      "e ver",
      "fo od",
      "wal k",
      "pic ture",
      "th ink",
      "n ight",
      "us ed",
      "v o",
      "S pot",
      "e yes",
      "ug ht",
      "list en",
      "sto pped",
      "a fter",
      "me mber",
      "D o",
      "flow ers",
      "y ear",
      "we et",
      "won der",
      "re pl",
      "gre at",
      "S ue",
      "wa it",
      "ri es",
      "sh out",
      "imp ort",
      "en joy",
      "b lo",
      "bl ue",
      "fore st",
      "not iced",
      "hand s",
      "r ing",
      "iz ed",
      "d is",
      "m on",
      "ne ar",
      "qu ick",
      "ir st",
      "by e",
      "import ant",
      "re member",
      "s ound",
      "L ook",
      "sl ide",
      "repl ied",
      "sh o",
      "ama z",
      "lea se",
      "wat ch",
      "show ed",
      "ok ay",
      "ch o",
      "g an",
      "le ave",
      "to p",
      "vo ice",
      "Sara h",
      "i p",
      "T his",
      "fe re",
      "co ok",
      "t ell",
      "dif fere",
      "me an",
      "l low",
      "cre am",
      "sw ing",
      "re st",
      "st ick",
      "wat ched",
      "s ing",
      "c ake",
      "b right",
      "fo llow",
      "tru ck",
      "every one",
      "p ul",
      "sto re",
      "c ou",
      "b ow",
      "be en",
      "s n",
      "bo at",
      "quick ly",
      "st rong",
      "s ure",
      "n er",
      "J ane",
      "rabb it",
      "differe nt",
      "st and",
      "to r",
      "M aybe",
      "cu ri",
      "good bye",
      "be came",
      "wa rd",
      "h igh",
      "clos er",
      "b re",
      "of t",
      "m ag",
      "do es",
      "un ny",
      "wa rm",
      "f f",
      "an ce",
      "Jo e",
      "un g",
      "curi ous",
      "p h",
      "m is",
      "il a",
      "laug h",
      "fa v",
      "and ma",
      "th ree",
      "dre ss",
      "L ila",
      "t w",
      "p ie",
      "on d",
      "le ep",
      "op en",
      "read y",
      "any more",
      "f irst",
      "ac hed",
      "flow er",
      "g rabb",
      "f lo",
      "but ter",
      "ir ed",
      "he ar",
      "b it",
      "I n",
      "k id",
      "k it",
      "p ain",
      "grabb ed",
      "s qu",
      "D on",
      "er ed",
      "p ar",
      "y el",
      "is y",
      "m ed",
      "tim es",
      "on ly",
      "l ight",
      "fel l",
      "t able",
      "Every one",
      "He l",
      "to w",
      "bird s",
      "de li",
      "jump ed",
      "fi re",
      "f t",
      "g lad",
      "st er",
      "s and",
      "c hen",
      "kit chen",
      "d ro",
      "p are",
      "a ir",
      "c ut",
      "ro ck",
      "help ed",
      "sto p",
      "c ket",
      "t r",
      "con t",
      "c r",
      "happ ened",
      "ke y",
      "Tom my",
      "f l",
      "b unny",
      "se es",
      "shout ed",
      "sto ry",
      "b al",
      "gr ass",
      "as h",
      "ha ving",
      "re ached",
      "y ummy",
      "pr in",
      "real ized",
      "bro ther",
      "lad y",
      "she d",
      "dra w",
      "m um",
      "fav or",
      "s weet",
      "d in",
      "favor ite",
      "ar y",
      "thr ough",
      "g ame",
      "com ing",
      "c ra",
      "pie ce",
      "z y",
      "b or",
      "q ue",
      "s oft",
      "re ally",
      "W h",
      "be gan",
      "pret end",
      "N ow",
      "wor ld",
      "t ra",
      "ol ly",
      "in s",
      "d one",
      "look s",
      "him self",
      "we l",
      "mag ic",
      "ma king",
      "co l",
      "kid s",
      "re l",
      "d uck",
      "p ond",
      "b a",
      "wh y",
      "n ts",
      "p rom",
      "wa ved",
      "f ro",
      "t ired",
      "mo ve",
      "at er",
      "fi x",
      "f ill",
      "wor ry",
      "m ouse",
      "p ed",
      "ck ed",
      "car s",
      "F in",
      "nam e",
      "pa per",
      "W ow",
      "pare nts",
      "co ld",
      "a isy",
      "S ally",
      "to uch",
      "than k",
      "i ke",
      "cat ch",
      "fun ny",
      "se en",
      "p ro",
      "p le",
      "st re",
      "g u",
      "ho ld",
      "an other",
      "The re",
      "ri ver",
      "ho pped",
      "c ried",
      "one y",
      "d s",
      "co ol",
      "do ing",
      "blo cks",
      "\" .",
      "f arm",
      "surpr ise",
      "on s",
      "a ge",
      "c or",
      "gre en",
      "u ff",
      "an c",
      "year s",
      "m ess",
      "turn ed",
      "clo se",
      "wo od",
      "h ind",
      "flo or",
      "sa t",
      "clim b",
      "ful l",
      "tre es",
      "pp y",
      "run ning",
      "wor ked",
      "less on",
      "wind ow",
      "we ar",
      "d ark",
      "be hind",
      "like s",
      "w ished",
      "ab y",
      "ig n",
      "yel low",
      "and y",
      "at ion",
      "g er",
      "b ag",
      "sw im",
      "happ ily",
      "D aisy",
      "J im",
      "E m",
      "ca st",
      "T o",
      "surpr ised",
      "s leep",
      "Ben ny",
      "fro g",
      "butter fly",
      "pe t",
      "ci ous",
      "ar ri",
      "y ard",
      "careful ly",
      "ho le",
      "Hel lo",
      "remember ed",
      "lo st",
      "s low",
      "he ld",
      "ra ce",
      "A t",
      "need ed",
      "c la",
      "bu y",
      "B illy",
      "le ft",
      "f ar",
      "b ar",
      "re ed",
      "dre am",
      "fa ir",
      "any thing",
      "s pot",
      "enjoy ed",
      "w rong",
      "ch il",
      "t ri",
      "dre n",
      "Fin ally",
      "follow ed",
      "chil dren",
      "st ran",
      "ro ss",
      "deli cious",
      "b ug",
      "h ung",
      "M olly",
      "p lease",
      "fin ished",
      "m ar",
      "bo t",
      "friend ly",
      "cont in",
      "d ir",
      "s now",
      "her self",
      "t all",
      "ce ss",
      "ag reed",
      "m ou",
      "v is",
      "s po",
      "h ill",
      "A my",
      "under stand",
      "ok en",
      "ho t",
      "u ed",
      "el se",
      "h id",
      "o o",
      "en s",
      "arri ved",
      "in ed",
      "g ent",
      "wonder ful",
      "br oken",
      "ing s",
      "m ight",
      "t ight",
      "e m",
      "for got",
      "l and",
      "ie ld",
      "b aby",
      "g l",
      "color s",
      "J en",
      "i ent",
      "mo st",
      "s it",
      "bu ild",
      "g one",
      "fill ed",
      "er ous",
      "a ther",
      "s ong",
      "m at",
      "Wh y",
      "squ ir",
      "ward s",
      "f r",
      "book s",
      "an ge",
      "some one",
      "r ow",
      "contin ued",
      "cre at",
      "as ure",
      "p at",
      "cast le",
      "li on",
      "f ight",
      "want s",
      "mo ther",
      "G r",
      "p ink",
      "squir rel",
      "leave s",
      "get ting",
      "ve s",
      "en ough",
      "G o",
      "mor ning",
      "f ru",
      "O K",
      "mom ent",
      "a v",
      "fin ally",
      "f all",
      "stay ed",
      "c ha",
      "cook ies",
      "bre ak",
      "g on",
      "po in",
      "be ach",
      "fe w",
      "some times",
      "scar y",
      "j e",
      "j u",
      "fe ct",
      "din ner",
      "ta st",
      "hung ry",
      "en ce",
      "gr andma",
      "C ome",
      "we t",
      "amaz ing",
      "z e",
      "try ing",
      "p ack",
      "w he",
      "pl ain",
      "dad dy",
      "per fect",
      "d r",
      "make s",
      "other s",
      "ask s",
      "clim bed",
      "p es",
      "picture s",
      "co ver",
      "tal k",
      "ta il",
      "list ened",
      "k ay",
      "mu s",
      "t le",
      "to n",
      "ic y",
      "wh ite",
      "f ur",
      "smil es",
      "J ill",
      "bal lo",
      "ro ll",
      "wa ll",
      "clo the",
      "al one",
      "app ear",
      "b us",
      "pl an",
      "clothe s",
      "ou p",
      "s pl",
      "pu ppy",
      "i ous",
      "o t",
      "t rain",
      "O h",
      "at ed",
      "was n",
      "br ought",
      "every thing",
      "stran ge",
      "se ar",
      "me t",
      "s park",
      "d ang",
      "gr ow",
      "de ep",
      "wood s",
      "pul led",
      "b ike",
      "sa il",
      "B e",
      "r ide",
      "pp ing",
      "Dad dy",
      "tre at",
      "fo x",
      "m i",
      "o se",
      "a f",
      "M ama",
      "uff y",
      "So on",
      "uck y",
      "p en",
      "h or",
      "S ome",
      "wa ited",
      "mus ic",
      "g i",
      "amaz ed",
      "d anc",
      "ted dy",
      "h ide",
      "na p",
      "se s",
      "ba th",
      "to wards",
      "f ield",
      "p ur",
      "th y",
      "A ll",
      "fly ing",
      "z z",
      "s is",
      "own er",
      "w his",
      "mis s",
      "s illy",
      "sha red",
      "run s",
      "be lie",
      "cl oud",
      "is s",
      "vis it",
      "l ake",
      "li ving",
      "jo b",
      "am es",
      "prom ised",
      "p ers",
      "mor al",
      "O kay",
      "d ance",
      "think s",
      "i et",
      "M ary",
      "sis ter",
      "u ally",
      "par ty",
      "m ind",
      "qu iet",
      "is es",
      "p s",
      "m oney",
      "S ure",
      "bo ard",
      "mu st",
      "g s",
      "wor ried",
      "J ust",
      "c hair",
      "ate ful",
      "a p",
      "an sw",
      "gr ateful",
      "slow ly",
      "color ful",
      "c up",
      "fast er",
      "m ent",
      "piece s",
      "b ran",
      "M r",
      "p ass",
      "li ce",
      "ex plain",
      "he s",
      "bro ke",
      "c tor",
      "s uch",
      "g if",
      "big ger",
      "i ch",
      "sn ack",
      "re ach",
      "pul l",
      "th re",
      "d ry",
      "he av",
      "mon ster",
      "pl ant",
      "jo in",
      "w in",
      "e le",
      "bl ack",
      "c andy",
      "wor ds",
      "bl an",
      "s cream",
      "tre asure",
      "magic al",
      "dang erous",
      "s ign",
      "M um",
      "dra gon",
      "g ra",
      "ac ross",
      "every where",
      "help ing",
      "Jim my",
      "d ri",
      "farm er",
      "H i",
      "Gr andma",
      "sm art",
      "star t",
      "mou th",
      "sm el",
      "m in",
      "ro t",
      "our se",
      "be e",
      "n g",
      "ig g",
      "ste pped",
      "thre w",
      "heav y",
      "tow er",
      "doll s",
      "bow l",
      "appear ed",
      "b ite",
      "dir ty",
      "sa me",
      "s wa",
      "tw ins",
      "belie ve",
      "cry ing",
      "mi x",
      "P lease",
      "id ent",
      "s c",
      "do ctor",
      "sha r",
      "prin cess",
      "he al",
      "would n",
      "ha r",
      "h ig",
      "cho ol",
      "clos ed",
      "un ch",
      "u b",
      "st uck",
      "s chool",
      "pre ss",
      "b as",
      "s pr",
      "ballo on",
      "st u",
      "swa m",
      "te ac",
      "Em ma",
      "br own",
      "s y",
      "ho ped",
      "s uddenly",
      "it ing",
      "pain t",
      "tow n",
      "p ow",
      "eat ing",
      "feel s",
      "c ourse",
      "cla pped",
      "pl ane",
      "cr ay",
      "d a",
      "sto od",
      "w r",
      "e k",
      "gent le",
      "fair y",
      "v al",
      "com for",
      "vent ually",
      "but ton",
      "take s",
      "bas ket",
      "ch ild",
      "f ree",
      "dro ve",
      "wel come",
      "pu shed",
      "sh ine",
      "r ound",
      "ne igh",
      "k no",
      "In side",
      "hig her",
      "with out",
      "k iss",
      "to day",
      "c ident",
      "swing s",
      "ste ad",
      "blan ket",
      "st r",
      "teac her",
      "i re",
      "che s",
      "ph one",
      "se a",
      "g ames",
      "che ered",
      "b en",
      "mo ved",
      "w ings",
      "j our",
      "explain ed",
      "long er",
      "i ble",
      "ac cident",
      "w ise",
      "l ate",
      "al ong",
      "we ll",
      "w ish",
      "The ir",
      "F l",
      "no ises",
      "itt ing",
      "s ang",
      "l ing",
      "happ en",
      "thr ow",
      "po l",
      "sto ne",
      "hug s",
      "turn s",
      "ne y",
      "ph ant",
      "sto ries",
      "m ine",
      "sho es",
      "l one",
      "app le",
      "th ough",
      "for get",
      "sing ing",
      "adventure s",
      "ne ck",
      "tr ou",
      "j ar",
      "up set",
      "f ence",
      "l unch",
      "lone ly",
      "d el",
      "E l",
      "ele phant",
      "se cre",
      "he art",
      "stre et",
      "ou n",
      "you ng",
      "be long",
      "P e",
      "nt ain",
      "d ist",
      "sh op",
      "Fl uffy",
      "it ch",
      "ne e",
      "mon key",
      "our s",
      "sh ook",
      "explo ring",
      "Sam my",
      "po cket",
      "s ent",
      "ad d",
      "near by",
      "s oup",
      "ught y",
      "L e",
      "ow l",
      "na ughty",
      "M y",
      "br ing",
      "star s",
      "f used",
      "sh ip",
      "ca ught",
      "wo ke",
      "back yard",
      "see med",
      "d es",
      "bo dy",
      "c al",
      "dro pped",
      "re lie",
      "ro cks",
      "at t",
      "ught er",
      "dr ink",
      "b s",
      "co at",
      "m ing",
      "da ughter",
      "ta king",
      "pur ple",
      "ma il",
      "f it",
      "ion s",
      "or ange",
      "sha pes",
      "hel lo",
      "d river",
      "c ow",
      "p il",
      "ben ch",
      "h it",
      "f ing",
      "come s",
      "sound s",
      "i er",
      "wonder ed",
      "bus y",
      "h ur",
      "t iny",
      "m il",
      "L ater",
      "pa st",
      "ne st",
      "ul l",
      "er ful",
      "rain bow",
      "no se",
      "s itting",
      "e se",
      "am p",
      "to uc",
      "k ite",
      "ju ice",
      "m er",
      "no thing",
      "hold ing",
      "s co",
      "sm ell",
      "bre a",
      "arm s",
      "m ach",
      "p ra",
      "c has",
      "th day",
      "p ig",
      "s ug",
      "W ith",
      "Go od",
      "cou nt",
      "b and",
      "c ir",
      "cut e",
      "in ing",
      "love s",
      "secre t",
      "o om",
      "bran ch",
      "pp er",
      "que st",
      "she ll",
      "ra id",
      "relie ved",
      "O f",
      "af raid",
      "id ge",
      "ar s",
      "prom ise",
      "fore ver",
      "H ow",
      "car ry",
      "s ick",
      "Jen ny",
      "day s",
      "gif t",
      "b oun",
      "h u",
      "un i",
      "pe ace",
      "T weet",
      "T ed",
      "bu cket",
      "touc hed",
      "hu ge",
      "or n",
      "cover ed",
      "pu sh",
      "pat ient",
      "li ve",
      "bir thday",
      "e g",
      "le tter",
      "che ese",
      "te rest",
      "in terest",
      "sun ny",
      "exc iting",
      "on to",
      "bu sh",
      "li fe",
      "w ra",
      "laugh ing",
      "w and",
      "ac t",
      "s u",
      "ge st",
      "creat ure",
      "itt ens",
      "b read",
      "He y",
      "g ged",
      "k ick",
      "im ag",
      "ve l",
      "ho pe",
      "cra w",
      "co zy",
      "ne ss",
      "Em ily",
      "swim ming",
      "jour ney",
      "s uc",
      "cou n",
      "bot tle",
      "give s",
      "in stead",
      "mil k",
      "ne t",
      "e as",
      "watch ing",
      "sp in",
      "l ucky",
      "c ed",
      "accident ally",
      "i an",
      "sun shine",
      "ca ve",
      "v a",
      "ad e",
      "shar p",
      "tal ked",
      "put s",
      "g en",
      "col le",
      "p udd",
      "poin ted",
      "h oney",
      "g ather",
      "ro ad",
      "d i",
      "b ru",
      "neigh bor",
      "y e",
      "b ought",
      "smil ing",
      "any one",
      "sear ched",
      "l ater",
      "s li",
      "sand w",
      "n ic",
      "itt en",
      "app les",
      "she lf",
      "p art",
      "sto rm",
      "W here",
      "sn ake",
      "she s",
      "ble m",
      "pro blem",
      "me et",
      "iz e",
      "w ide",
      "wor d",
      "ir t",
      "in v",
      "w om",
      "ug g",
      "wom an",
      "heal thy",
      "interest ing",
      "œ I",
      "spo on",
      "cir cle",
      "tast y",
      "p ile",
      "v ill",
      "duck s",
      "z oom",
      "e ag",
      "ro pe",
      "n um",
      "sp id",
      "cle ver",
      "pro te",
      "mat ter",
      "trou ble",
      "bl ed",
      "and pa",
      "cray ons",
      "a st",
      "cloud s",
      "pers on",
      "ro ar",
      "lo g",
      "g igg",
      "pa th",
      "fr on",
      "A re",
      "fe ather",
      "fron t",
      "er t",
      "comfor table",
      "sh ining",
      "smel led",
      "de st",
      "was h",
      "J ake",
      "pre sent",
      "te a",
      "pra ct",
      "spot ted",
      "spl ash",
      "min ut",
      "scream ed",
      "z oo",
      "re spe",
      "or gan",
      "wa r",
      "mu d",
      "or m",
      "lo ck",
      "danc ed",
      "ho p",
      "se at",
      "wh ich",
      "whe el",
      "ber ries",
      "pu zz",
      "M ittens",
      "my ster",
      "te ach",
      "snow man",
      "R o",
      "is a",
      "th in",
      "la st",
      "l ay",
      "p an",
      "as leep",
      "hor se",
      "n ed",
      "love ly",
      "answ er",
      "roll ed",
      "To gether",
      "gent ly",
      "b ark",
      "wear ing",
      "place s",
      "gi ant",
      "go es",
      "sear ch",
      "f li",
      "who le",
      "w ild",
      "s er",
      "L isa",
      "g y",
      "st ring",
      "p ill",
      "Some times",
      "I f",
      "fru it",
      "cor ner",
      "im press",
      "dir t",
      "respe ct",
      "t un",
      "wor m",
      "t ries",
      "on es",
      "cor n",
      "con fused",
      "car d",
      "M ummy",
      "v ie",
      "bu bb",
      "tast ed",
      "sl id",
      "ru bb",
      "ce an",
      "e th",
      "o cean",
      "pic nic",
      "for give",
      "ru de",
      "too l",
      "as ed",
      "mach ine",
      "sp ent",
      "te eth",
      "dri ve",
      "ri ch",
      "itt y",
      "be l",
      "st ep",
      "u ce",
      "wa ve",
      "o ven",
      "p our",
      "cal m",
      "pretend ed",
      "del ight",
      "po p",
      "cook ie",
      "spid er",
      "fe et",
      "fur ry",
      "l ar",
      "face s",
      "iz z",
      "Pe ter",
      "fo ld",
      "L ittle",
      "sh y",
      "er ly",
      "s we",
      "help ful",
      "e ventually",
      "fin ish",
      "te st",
      "ch ick",
      "He re",
      "it y",
      "mou ntain",
      "h ang",
      "peace ful",
      "tal king",
      "sh r",
      "pre ad",
      "st air",
      "m el",
      "re s",
      "la ce",
      "mor row",
      "to morrow",
      "s pread",
      "cho col",
      "t id",
      "lad der",
      "prote ct",
      "i pped"
    ]
  }
}